32
31
32
33
30
31
32
33
34
30
31
32
33
34
31
32
33
34
31
32
33
24
22
23
24
25
3F
40
41
42
22
23
24
25
26
3E
3F
40
41
42
43
22
23
24
25
26
3E
3F
40
41
42
22
23
24
25
3E
3F
40
41
42
24
25
3F
40
41
42
24
14
15
16
17
30
31
32
33
4C
4D
4E
4F
50
14
15
16
17
18
30
31
32
33
34
4C
4D
4E
4F
50
13
14
15
16
17
18
2F
30
31
32
33
34
4C
4D
4E
4F
50
13
14
15
16
17
18
30
31
32
33
34
35
4D
4E
4F
50
14
15
16
31
32
33
4D
4E
4F
07
06
07
08
09
23
24
25
3F
40
41
42
5C
5D
5E
06
07
08
09
0A
22
23
24
25
26
3E
3F
40
41
42
5A
5B
5C
5D
5E
05
06
07
08
09
0A
22
23
24
25
26
3E
3F
40
41
42
43
5A
5B
5C
5D
5E
5F
06
07
08
09
22
23
24
25
26
3E
3F
40
41
42
5B
5C
5D
5E
5F
06
07
08
23
24
25
3F
40
41
5B
5C
5D
15
16
17
31
32
34
4E
4F
50
14
15
16
17
30
31
32
33
34
4C
4D
4E
4F
50
14
15
16
17
18
30
31
32
33
34
4C
4D
4E
4F
50
51
14
15
16
17
30
31
32
33
34
4C
4D
4E
4F
50
14
15
16
17
31
32
33
34
4D
4E
4F
50
16
4E
24
25
3F
40
41
22
23
24
25
26
3F
40
41
42
21
22
23
24
25
26
3E
3F
40
41
42
22
23
24
25
3E
3F
40
41
42
43
22
23
24
25
26
3E
3F
40
41
24
40
41
31
33
31
32
33
34
30
31
32
33
34
30
31
32
33
34
31
32
33
33
