26
27
28
29
2A
3B
3C
3D
3E
26
27
28
29
2A
3A
3B
3C
3D
3E
3F
25
26
27
28
29
2A
39
3A
3B
3C
3D
3E
26
27
28
29
2A
3A
3B
3C
3D
3E
27
28
29
2A
3B
3C
3D
3E
27
3C
3D
