001
012
01F
00E
006
04D
0D6
058
009
006
059
0D8
06B
00B
011
02F
016
001
001
001
001
001
001
00C
00D
00A
007
017
00E
003
00B
06A
093
034
005
004
039
0B9
058
009
002
00F
085
10F
04F
003
004
05C
105
086
011
004
021
03D
01D
001
011
04A
028
003
003
001
003
004
001
001
001
001
008
00F
004
001
009
011
005
001
003
00E
009
003
009
065
08A
02C
002
003
038
08A
033
005
005
023
08E
068
011
001
01F
0AE
0FF
03A
003
001
007
06B
107
070
00E
001
04A
0EE
0B4
010
001
006
04A
05C
013
003
003
019
05F
024
001
001
016
048
033
009
001
004
004
004
009
002
001
004
003
001
001
005
009
001
002
006
002
001
003
006
001
004
00B
001
011
066
06D
021
001
004
032
06F
01D
003
007
01F
088
03A
007
001
019
05B
065
00C
002
01F
0B5
0E7
033
004
00E
090
0F4
04B
005
004
062
104
090
006
001
003
037
0ED
0DB
021
001
00A
05F
079
010
007
03B
067
024
002
001
02F
06B
043
003
015
06B
053
00A
001
002
00A
008
003
002
003
003
00A
003
004
006
009
005
006
001
002
001
001
005
002
002
006
040
060
01B
002
02E
054
023
003
002
01A
057
02B
00A
018
0B9
101
038
001
007
081
108
081
00A
003
040
0D6
09E
013
001
00C
05E
09A
020
007
043
08B
040
005
001
029
078
061
008
002
007
008
002
00A
00B
008
001
003
00E
00A
003
002
001
003
001
003
003
002
006
022
03B
014
003
016
03E
026
001
001
00D
086
0EF
057
005
002
04C
107
075
00C
00E
058
0A6
031
001
038
0CE
05E
00A
001
001
00A
01A
003
001
001
007
011
009
001
001
001
002
001
012
033
014
001
003
069
0EE
065
009
006
061
0D2
05B
006
00E
021
00B
001
