001
013
033
016
003
001
012
0F0
243
0E5
015
034
255
547
23B
025
012
0E8
24C
0F4
00D
004
00F
024
013
003
001
014
024
017
013
0EB
266
123
017
001
025
23C
510
263
026
001
01B
118
214
10A
017
002
00E
02E
018
003
001
