001
001
002
013
028
008
002
001
018
028
010
010
0D8
192
0A3
00C
00A
0A5
1D1
0ED
012
001
001
028
1DB
3C2
146
01C
01C
153
3B7
1C4
028
001
00D
0B2
16A
086
006
00A
07F
176
0BE
010
002
005
019
009
001
00F
018
00B
001
001
00A
018
009
009
018
00A
001
013
0B3
153
093
006
009
0A2
180
0AC
00B
001
01E
1C2
398
157
01B
015
177
3BC
1D2
02A
001
010
0D4
1C0
0A9
006
009
0B2
1BE
0CD
017
015
023
00F
001
00A
020
00E
002
002
001
002
