32
31
32
33
34
2F
30
31
32
33
34
30
31
32
33
34
30
31
32
33
34
30
31
32
33
34
32
31
32
33
30
31
32
33
34
2F
30
31
32
33
34
2F
30
31
32
33
34
30
31
32
33
34
33
