38
3A
29
2A
2B
2C
2D
37
38
39
3A
29
2A
2B
2C
2D
37
38
39
3A
3B
3C
28
29
2A
2B
2C
2D
37
38
39
3A
3B
3C
29
2A
2B
2C
2D
37
38
39
3A
3B
29
2A
2B
2C
2D
38
39
3A
3B
38
2A
2B
2C
38
39
3A
3B
29
2A
2B
2C
2D
37
38
39
3A
3B
28
29
2A
2B
2C
2D
37
38
39
3A
3B
3C
29
2A
2B
2C
2D
37
38
39
3A
3B
2A
2B
2C
2D
38
39
3A
3B
2B
38
3A
