25
26
26
26
27
27
27
27
27
28
28
28
28
28
28
29
29
29
29
29
29
29
29
29
29
29
29
29
29
2A
2A
2A
2A
2A
2A
2A
2A
2A
2A
2A
2A
2A
2A
2A
2B
2B
2B
2B
2B
2B
2B
2B
2B
2B
2C
2C
2C
2C
2C
2C
2C
2C
2C
2C
2D
2D
2D
2D
2D
2D
2D
30
30
30
30
30
30
30
31
31
31
31
31
31
31
31
31
31
31
32
32
32
32
32
32
32
32
32
32
33
33
33
33
33
33
33
33
33
33
34
34
34
34
34
34
34
34
35
37
37
37
37
37
37
37
38
38
38
38
38
38
38
38
38
38
38
39
39
39
39
39
39
39
39
39
39
3A
3A
3A
3A
3A
3A
3A
3A
3A
3A
3A
3A
3A
3B
3B
3B
3B
3B
3B
3B
3B
3B
3B
3B
3B
3B
3B
3C
3C
3C
3C
3C
3C
3D
3D
3D
3D
3D
3E
3E
3E
3E
3E
3F
