31
32
33
30
31
32
33
34
30
31
32
33
34
35
30
31
32
33
34
30
31
32
33
3E
26
27
28
29
2A
3A
3B
3C
3D
3E
26
27
28
29
2A
3A
3B
3C
3D
3E
26
27
28
29
2A
3A
3B
3C
3D
3E
26
27
28
29
2A
39
3A
3B
3C
3D
3E
3F
26
27
28
29
2A
3A
3B
3C
3D
3E
29
30
31
32
33
34
30
31
32
33
34
30
31
32
33
34
30
31
32
33
34
2F
30
31
32
33
34
32
