007
01D
009
00C
0BE
194
0B0
00B
020
1A7
3A6
16D
023
001
008
0BE
185
0A6
011
001
00D
015
00E
001
001
012
025
00E
001
002
00B
020
016
001
00B
0AA
19F
091
00E
00C
0A9
1A6
0A8
00E
027
169
3C4
197
017
023
18C
3BD
1A2
021
00D
0BB
17D
0A8
00B
001
00F
0C5
193
0AD
010
001
002
009
01A
00A
001
001
00C
024
00A
001
001
003
00B
026
009
001
00E
0B8
1CB
0BC
00E
01C
1AB
3BD
190
01B
009
0A4
188
0AA
00C
001
001
009
01B
010
002
002
