27
28
29
29
29
29
29
29
29
29
29
2A
2A
2A
2A
2A
2A
2A
2A
2A
2A
2A
2B
2B
2B
2B
2B
2B
2B
2B
2B
2B
2B
2B
2C
2C
2C
2C
2C
2C
2C
2C
2C
2C
2D
2D
2D
2D
2D
2D
2D
2D
2D
2E
37
37
37
37
37
37
37
38
38
38
38
38
38
38
38
38
38
39
39
39
39
39
39
39
39
39
39
39
39
3A
3A
3A
3A
3A
3A
3A
3A
3A
3A
3B
3B
3B
3B
3B
3B
3B
3B
3C
3C
3C
