001
009
011
006
004
04D
0A8
049
006
00E
0B5
19C
0AC
00D
001
001
009
013
00C
002
007
049
0B0
052
004
001
005
00C
00A
004
061
0A9
044
007
002
003
011
004
007
05A
0D1
05D
007
001
00E
0D7
174
085
009
00B
094
191
0BF
012
006
04D
095
040
005
003
038
091
040
009
001
004
005
001
005
006
007
001
004
00C
005
003
00D
006
009
054
0AB
04B
003
001
004
051
0A9
044
005
00F
0A9
1A1
0C2
00A
00D
0AB
199
0A3
00C
003
045
0B7
049
005
008
043
0C4
041
008
009
011
005
002
005
010
004
001
001
002
00E
004
001
001
004
009
005
056
0A6
045
006
008
039
08D
040
008
001
00E
0C4
171
09A
00F
00D
091
189
0DE
013
00A
058
0BF
04B
004
005
00F
006
005
057
0BC
065
003
00B
014
006
002
007
045
0B3
03D
008
001
009
00F
00E
001
00A
0B3
167
0B7
00B
001
008
058
0C0
046
005
002
00B
013
005
001
001
