001
003
00A
006
005
00C
005
004
00E
003
006
004
003
006
02D
07B
03F
003
001
037
071
038
005
003
036
07F
02E
005
002
03A
080
03A
003
007
070
0F8
06F
00C
00D
071
122
07F
008
001
00A
076
107
07B
008
009
06E
112
079
006
003
02F
070
031
005
005
033
072
02F
006
007
03C
06B
024
003
003
039
07A
030
005
002
006
003
003
008
006
007
006
006
008
003
001
001
003
00C
006
001
008
003
004
009
004
001
008
002
001
002
029
060
031
002
008
033
070
03C
004
002
038
077
02D
002
005
030
06B
031
004
00B
080
117
079
00A
007
068
112
069
006
007
07C
0FD
07D
005
00A
06F
0EE
068
009
002
02F
070
030
004
003
02B
065
037
004
008
02C
085
02C
002
005
032
074
02B
003
005
006
005
002
001
004
006
005
003
00A
005
003
00D
002
001
004
006
002
002
005
003
001
008
003
004
006
001
003
036
07E
02D
003
001
003
036
06D
029
005
004
031
071
032
004
001
006
02F
072
035
006
001
00A
073
122
07A
008
004
06A
0F2
06B
009
006
07F
118
070
00D
00A
072
11A
078
007
004
03E
078
032
001
001
02B
06C
02D
003
003
036
073
038
003
001
024
085
031
001
001
003
00B
005
001
005
007
002
006
00E
002
001
002
005
006
001
001
001
003
00F
005
001
001
003
00E
003
002
00A
005
001
004
009
003
033
079
038
001
007
038
06D
029
001
001
030
06E
031
001
001
002
037
078
031
006
00C
078
11A
077
006
008
085
11D
080
007
00C
071
109
05F
009
009
08F
105
069
009
004
028
07A
03B
002
005
02E
07F
030
002
00A
02B
071
039
003
003
026
07B
03E
005
001
002
009
006
003
00A
002
002
001
006
007
004
004
006
003
