05
06
06
06
07
07
07
07
07
08
08
08
08
08
09
09
09
09
0A
0A
0A
13
14
14
14
14
14
14
14
14
15
15
15
15
15
15
15
15
15
15
15
16
16
16
16
16
16
16
16
16
16
17
17
17
17
17
17
17
17
17
18
18
18
18
18
18
19
22
22
22
22
22
22
22
22
22
22
22
22
22
23
23
23
23
23
23
23
23
23
23
23
23
23
23
23
24
24
24
24
24
24
24
24
24
24
24
24
24
24
24
24
24
25
25
25
25
25
25
25
25
25
25
25
25
25
25
25
25
26
26
26
26
26
26
26
26
26
2F
30
30
30
30
30
30
30
30
30
30
30
30
30
30
31
31
31
31
31
31
31
31
31
31
31
31
31
31
31
31
31
31
31
31
32
32
32
32
32
32
32
32
32
32
32
32
32
32
32
32
32
32
32
32
32
32
32
33
33
33
33
33
33
33
33
33
33
33
33
33
33
33
33
33
33
33
34
34
34
34
34
34
34
34
34
34
34
34
3E
3E
3E
3E
3E
3E
3E
3E
3E
3F
3F
3F
3F
3F
3F
3F
3F
3F
3F
3F
3F
3F
3F
40
40
40
40
40
40
40
40
40
40
40
40
40
40
40
40
41
41
41
41
41
41
41
41
41
41
41
41
41
41
42
42
42
42
42
42
42
42
42
42
42
42
43
43
4C
4C
4C
4C
4C
4D
4D
4D
4D
4D
4D
4D
4D
4D
4E
4E
4E
4E
4E
4E
4E
4E
4E
4E
4E
4F
4F
4F
4F
4F
4F
4F
4F
4F
4F
50
50
50
50
50
50
50
50
50
51
51
51
5A
5A
5B
5B
5B
5B
5C
5C
5C
5C
5C
5D
5D
5D
5D
5D
5E
5E
5E
5F
