31
32
33
30
31
32
33
34
2A
30
31
32
33
34
38
29
2A
2B
2C
30
31
32
33
34
38
39
3A
3B
29
2A
2B
2C
2D
31
32
33
37
38
39
3A
3B
29
2A
2B
2C
2D
32
37
38
39
3A
3B
29
2A
2B
2C
2D
37
38
39
3A
3B
29
2A
2B
2C
38
39
3A
3B
2B
39
28
27
28
29
2A
3B
3C
3D
26
27
28
29
2A
3A
3B
3C
3D
3E
26
27
28
29
2A
3A
3B
3C
3D
3E
26
27
28
29
2A
3A
3B
3C
3D
3E
3F
27
28
29
3B
3C
3D
3C
3D
2C
2A
2B
2C
38
39
3A
29
2A
2B
2C
2D
37
38
39
3A
3B
28
29
2A
2B
2C
2D
32
37
38
39
3A
3B
3C
29
2A
2B
2C
2D
31
32
33
34
37
38
39
3A
3B
3C
29
2A
2B
2C
2D
30
31
32
33
34
35
38
39
3A
3B
2A
30
31
32
33
34
39
30
31
32
33
34
31
32
33
33
