004
012
034
01D
003
015
0E8
293
137
01D
001
002
01D
206
554
272
036
003
009
0CB
1FD
0D6
012
00E
01B
00E
001
002
00E
020
00D
001
001
01A
0E8
202
0C0
017
047
297
50A
232
01E
01B
12C
284
0FF
013
003
021
045
012
001
001
