001
003
003
01D
036
012
01D
137
272
0D6
00E
034
293
554
1FD
01B
001
012
0E8
206
0CB
00E
004
015
01D
009
002
001
017
01E
013
001
00D
0C0
232
0FF
012
020
202
50A
284
045
00E
0E8
297
12C
021
001
002
01A
047
01B
003
001
