2A
2B
29
2A
2B
2C
29
2A
2B
2C
2D
29
2A
2B
2C
2D
2E
29
2A
2B
2C
2D
29
2A
2B
2C
2B
37
38
39
3A
3B
37
38
39
3A
3B
37
38
39
3A
3B
37
38
39
3A
3B
3C
37
38
39
3A
3B
38
