006
00B
00A
003
043
0B3
046
00A
001
00D
0BF
196
0A7
009
001
002
00A
012
006
00B
050
0A9
04A
006
005
00A
007
001
011
06C
0C4
040
005
003
009
006
002
048
0C6
056
00A
00A
0BF
194
0A2
009
001
00C
08F
198
0C2
011
009
04A
097
040
001
003
039
09F
04C
004
001
005
008
004
008
009
004
001
001
002
002
006
011
006
001
00B
00A
009
009
042
09D
042
006
002
03E
0BA
04A
003
00C
0B4
18A
08F
014
00F
099
19F
0B1
00F
005
05E
0AC
03C
006
00B
03C
0BE
04C
00C
001
002
00E
004
00A
008
008
001
001
001
003
008
002
002
007
009
003
04B
0AC
037
004
005
039
08F
053
006
001
017
0C6
1A6
09A
00A
001
00C
093
162
0C1
011
001
009
05E
0B5
04F
006
004
013
006
002
003
04B
0E4
062
009
001
001
008
011
007
001
006
048
0BC
047
006
001
002
01A
00C
003
001
009
0C7
17B
0B6
00D
001
004
047
09A
04E
007
00A
010
009
001
