25
26
26
26
26
27
27
27
27
27
27
28
28
28
28
28
29
29
29
29
29
2A
2A
2A
2A
2A
39
3A
3A
3A
3B
3B
3B
3B
3B
3C
3C
3C
3C
3C
3C
3D
3D
3D
3D
3D
3D
3E
3E
3E
3E
3E
3F
