003
015
025
00D
003
017
026
017
003
016
0E5
23B
0F4
013
017
123
263
10A
018
001
001
033
243
547
24C
024
001
024
266
510
214
02E
013
0F0
255
0E8
00F
014
0EB
23C
118
00E
012
034
012
004
013
025
01B
002
001
001
001
