12
13
14
15
27
28
29
3B
3C
3D
4F
50
51
12
13
14
15
16
26
27
28
29
2A
3A
3B
3C
3D
3E
4E
4F
50
51
52
12
13
14
15
16
26
27
28
29
2A
2B
3A
3B
3C
3D
3E
4E
4F
50
51
52
12
13
14
15
16
26
27
28
29
2A
3A
3B
3C
3D
3E
4E
4F
50
51
52
13
14
15
27
28
29
3C
3D
4F
50
51
52
50
13
14
15
27
28
29
3B
3C
3D
4F
50
51
52
12
13
14
15
16
26
27
28
29
2A
3A
3B
3C
3D
3E
4E
4F
50
51
52
12
13
14
15
16
26
27
28
29
2A
3A
3B
3C
3D
3E
4E
4F
50
51
52
12
13
14
15
16
26
27
28
29
2A
3A
3B
3C
3D
3E
4E
4F
50
51
52
13
14
15
16
26
27
28
29
3B
3C
3D
4F
50
51
52
13
14
15
27
28
29
3B
3C
3D
4F
50
51
12
13
14
15
16
17
26
27
28
29
2A
3A
3B
3C
3D
3E
3F
4E
4F
50
51
52
11
12
13
14
15
16
26
27
28
29
2A
3A
3B
3C
3D
3E
4E
4F
50
51
52
12
13
14
15
16
26
27
28
29
2A
3A
3B
3C
3D
3E
4E
4F
50
51
52
12
13
14
15
16
27
28
29
3B
3C
3D
3E
4F
50
51
52
50
12
13
14
15
16
26
27
28
29
3B
3C
3D
4F
50
51
12
13
14
15
16
26
27
28
29
2A
3A
3B
3C
3D
3E
4D
4E
4F
50
51
52
12
13
14
15
16
26
27
28
29
2A
3A
3B
3C
3D
3E
4E
4F
50
51
52
12
13
14
15
16
26
27
28
29
2A
3A
3B
3C
3D
3E
4E
4F
50
51
52
12
13
14
15
27
28
29
2A
3A
3B
3C
3D
4F
50
51
