37
38
39
3A
3B
37
38
39
3A
3B
3C
36
37
38
39
3A
3B
3C
37
38
39
3A
3B
38
39
3A
39
29
2A
2B
2C
2D
28
29
2A
2B
2C
2D
29
2A
2B
2C
2D
29
2A
2B
2C
2D
29
2A
2B
2C
2D
2A
