33
31
32
33
30
31
32
33
34
30
31
32
33
34
3A
29
2A
2B
2C
2D
30
31
32
33
34
37
38
39
3A
29
2A
2B
2C
2D
30
31
32
33
37
38
39
3A
3B
3C
29
2A
2B
2C
2D
37
38
39
3A
3B
29
2A
2B
2C
2D
37
38
39
3A
3B
2A
2B
2C
37
38
39
3A
26
27
28
29
3B
3C
3D
26
27
28
29
2A
2B
3A
3B
3C
3D
3E
26
27
28
29
2A
3A
3B
3C
3D
3E
26
27
28
29
2A
3A
3B
3C
3D
3E
27
28
29
3A
3B
3C
3D
3E
28
2A
2B
2C
2D
38
39
3A
29
2A
2B
2C
2D
37
38
39
3A
3B
3C
29
2A
2B
2C
2D
37
38
39
3A
3B
29
2A
2B
2C
2D
31
32
33
37
38
39
3A
3B
2A
2B
2C
2D
30
31
32
33
34
37
38
39
3A
3B
30
31
32
33
34
3B
30
31
32
33
34
30
31
32
33
34
33
